20
0E
31
11
1E
03
2E
E1
2F
2F
0F
EE
F1
E3
ED
D2
F0
2E
FD
DE
01
D1
D0
0E
DE
DF
F0
1F
1F
33
2F
E1
22
E0
02
EE
D1
3D
FE
3E
D3
E1
ED
F1
12
E3
11
33
D0
F2
31
2F
DE
11
30
DE
3F
31
01
03
FF
00
F3
E2
01
E1
0D
10
F2
12
E2
23
2E
EE
21
21
00
20
CD
DF
F0
F1
2D
12
03
1D
20
30
F1
C1
2D
2F
00
F1
3D
13
1F
FE
13
2D
1E
01
21
E2
F0
F2
04
0D
EE
E1
00
D1
33
F1
10
1C
E1
F2
0D
3E
03
10
F2
D0
3F
21
E3
DE
00
20
E0
0F
D1
0D
01
FD
01
F0
EE
1E
DF
13
02
DF
22
03
DF
0E
1D
11
FE
1F
12
1F
0F
FF
33
1E
F0
DD
2F
3F
2F
FC
20
EF
E0
31
00
F0
0D
FD
0E
2E
D0
1F
21
E3
02
ED
3E
0F
2F
F0
1D
D2
ED
1E
2F
0E
01
EE
F2
0E
E1
20
F3
FE
DD
3D
DE
E1
D1
FE
E0
1E
3F
2D
2F
00
FE
0F
E0
E2
20
E0
D0
DD
2F
13
1F
FD
21
F0
4A
63
0D
ED
EE
0E
1D
BF
B5
2E
F0
FE
E6
F7
1D
21
21
ED
00
30
01
01
1D
EE
3D
1E
1D
DD
0E
20
E0
F1
23
E3
30
F1
F3
00
D1
2F
13
3D
FE
10
DF
E1
1E
FD
E3
E2
00
13
22
F2
32
20
2E
20
4F
DE
02
DF
02
21
FF
21
E2
D1
11
03
E2
14
F3
40
33
ED
DE
D3
ED
11
22
F0
3F
22
31
F1
0E
2E
00
E3
33
3D
3F
D0
02
30
FD
10
00
1D
2D
F1
D1
0E
2D
FF
F2
0D
FF
3F
D1
0E
F1
DF
E1
22
32
3E
1F
E0
E2
2D
FE
2D
E0
2E
22
DF
11
E1
31
E2
0E
2F
D0
E5
12
F2
2D
12
22
1F
2F
F2
F1
0E
FE
ED
1D
21
1F
21
02
2F
00
12
3F
21
D1
2D
F1
22
21
31
EF
ED
12
F2
2E
E3
2E
30
FF
3D
FD
E1
20
20
1C
E0
D1
0E
0D
C1
14
52
2E
F3
F2
D5
01
D1
00
F2
03
E1
11
D2
0F
2E
DF
3F
2D
2E
EE
F0
F0
2F
FE
FE
EF
2F
02
FF
30
E0
DE
FF
D4
1E
02
E1
11
1F
C1
1F
32
21
D3
1E
CF
2F
11
F2
11
12
ED
3D
2F
EF
1F
F0
F1
0F
03
D2
E1
E1
2C
FF
0E
11
EF
1E
00
0E
E0
3E
D1
EF
01
FF
13
2F
FF
EE
0E
2F
D1
22
00
00
00
33
D0
31
12
11
DF
00
1E
21
31
D0
14
F1
3F
ED
