2
E
0
1
F
1
2
F
F
2
E
1
0
1
F
1
1
F
1
3
1
F
1
E
F
D
0
1
F
1
0
1
2
F
E
F
2
2
0
F
1
3
E
1
0
0
0
E
E
F
1
E
F
E
E
2
2
1
1
2
F
0
0
2
F
2
1
1
F
2
1
F
2
0
E
2
F
2
3
2
F
0
1
0
1
0
0
F
1
E
F
1
E
1
F
1
3
2
1
3
0
F
2
3
F
0
F
2
F
3
2
1
D
F
F
E
2
3
3
1
1
0
0
F
E
E
2
E
0
1
E
1
1
0
0
F
2
E
F
2
F
E
2
E
E
2
1
0
F
2
0
1
F
D
1
E
F
F
E
F
1
2
0
2
1
3
E
2
0
0
0
0
2
F
F
F
E
2
0
0
0
E
E
D
1
F
F
2
0
2
1
F
1
E
D
1
2
0
E
0
D
2
F
F
1
C
F
E
0
F
3
0
F
0
D
1
2
2
F
0
0
0
0
F
0
1
0
F
0
2
E
1
F
E
1
0
0
0
2
1
F
2
E
F
F
E
2
0
0
1
0
1
F
1
1
E
2
F
2
E
F
2
E
2
2
F
E
2
2
1
1
E
E
0
2
2
E
1
0
1
0
F
1
E
F
E
0
F
E
0
1
F
1
0
1
0
2
F
2
F
1
1
0
F
E
E
0
0
E
F
0
0
2
1
2
E
0
0
1
E
2
0
F
F
2
0
2
0
E
0
0
E
F
F
2
F
1
1
1
0
E
0
2
E
F
E
0
1
2
2
1
0
F
D
0
0
1
1
F
E
1
0
0
E
F
0
1
F
1
E
0
1
0
F
F
F
0
F
2
E
F
1
E
E
1
2
E
0
1
F
0
0
2
E
2
E
2
1
E
F
0
F
F
0
0
0
1
F
E
0
0
F
F
F
1
E
E
2
0
1
2
0
0
F
0
E
F
E
F
F
F
2
F
E
F
2
0
1
2
0
0
E
0
0
1
1
E
2
E
1
E
0
F
E
1
E
1
F
E
F
2
E
3
E
F
0
E
1
2
0
D
0
0
0
E
2
0
2
F
F
F
1
0
3
0
0
3
E
0
2
F
F
3
2
3
1
0
0
A
F
1
1
3
F
2
1
2
1
1
3
2
E
E
1
F
1
0
E
0
2
2
2
1
0
2
E
2
0
F
2
0
2
2
F
0
F
2
E
1
E
F
E
1
F
1
0
3
F
0
F
1
1
0
2
F
3
F
4
3
2
2
1
0
F
3
1
4
1
1
1
E
E
F
3
3
E
4
4
1
4
1
F
4
4
0
1
F
2
E
6
4
4
0
F
3
F
4
1
4
1
D
0
E
F
F
5
6
E
1
0
2
F
2
1
E
E
F
0
2
1
0
F
E
1
0
2
F
0
E
1
E
F
F
0
E
0
1
1
F
E
0
2
2
3
0
F
2
2
1
F
0
0
1
2
3
1
F
0
9
0
3
2
1
0
E
2
F
F
F
3
F
0
E
1
0
E
F
F
1
2
E
E
2
1
F
0
F
1
0
3
2
0
1
F
0
0
F
0
0
2
2
0
2
E
0
2
F
F
0
E
0
E
F
0
0
0
0
2
E
E
F
E
F
0
1
2
0
F
F
0
1
0
2
1
F
1
0
F
1
F
F
1
1
E
E
F
E
1
E
1
2
0
F
0
1
E
0
F
2
2
2
1
1
E
F
1
F
0
2
2
2
2
1
F
E
1
2
0
2
2
E
E
E
1
F
E
1
0
E
E
2
F
E
1
F
0
1
F
E
0
1
0
2
2
2
1
F
3
D
2
0
2
0
1
E
1
0
E
2
2
2
F
1
1
2
1
1
1
F
3
1
1
D
1
E
0
F
F
2
F
E
2
E
E
0
E
E
0
2
0
F
F
2
C
0
F
0
0
0
1
1
1
D
F
1
4
4
1
4
0
1
4
3
0
1
4
D
6
3
5
E
F
2
E
4
0
6
0
2
F
0
1
0
5
1
F
E
1
3
F
1
F
0
2
E
1
E
0
1
E
2
0
1
1
0
2
0
0
0
E
F
1
1
0
0
0
F
E
2
2
2
2
1
1
2
E
F
E
F
F
1
E
2
F
E
F
F
2
E
0
2
0
E
E
E
2
F
F
E
1
2
0
E
F
1
1
0
1
0
F
1
E
1
2
2
0
1
F
2
E
E
F
1
E
F
2
0
E
E
F
F
0
1
0
F
E
E
1
F
F
F
E
F
E
2
E
1
F
1
E
E
E
0
F
0
1
2
2
2
F
E
F
E
1

