2
0
0
E
3
1
1
1
1
E
0
3
2
E
E
1
2
F
2
F
0
F
E
E
F
1
E
3
E
D
D
2
F
0
2
E
F
D
D
E
0
1
D
1
D
0
0
E
D
E
D
F
F
0
1
F
1
F
3
3
2
F
E
1
2
2
E
0
0
2
E
E
D
1
3
D
F
E
3
E
D
3
E
1
E
D
F
1
1
2
E
3
1
1
3
3
D
0
F
2
3
1
2
F
D
E
1
1
3
0
D
E
3
F
3
1
0
1
0
3
F
F
0
0
F
3
E
2
0
1
E
1
0
D
1
0
F
2
1
2
E
2
2
3
2
E
E
E
2
1
2
1
0
0
2
0
C
D
D
F
F
0
F
1
2
D
1
2
0
3
1
D
2
0
3
0
F
1
C
1
2
D
2
F
0
0
F
1
3
D
1
3
1
F
F
E
1
3
2
D
1
E
0
1
2
1
E
2
F
0
F
2
0
4
0
D
E
E
E
1
0
0
D
1
3
3
F
1
1
0
1
C
E
1
F
2
0
D
3
E
0
3
1
0
F
2
D
0
3
F
2
1
E
3
D
E
0
0
2
0
E
0
0
F
D
1
0
D
0
1
F
D
0
1
F
0
E
E
1
E
D
F
1
3
0
2
D
F
2
2
0
3
D
F
0
E
1
D
1
1
F
E
1
F
1
2
1
F
0
F
F
F
3
3
1
E
F
0
D
D
2
F
3
F
2
F
F
C
2
0
E
F
E
0
3
1
0
0
F
0
0
D
F
D
0
E
2
E
D
0
1
F
2
1
E
3
0
2
E
D
3
E
0
F
2
F
F
0
1
D
D
2
E
D
1
E
2
F
0
E
0
1
E
E
F
2
0
E
E
1
2
0
F
3
F
E
D
D
3
D
D
E
E
1
D
1
F
E
E
0
1
E
3
F
2
D
2
F
0
0
F
E
0
F
E
0
E
2
2
0
E
0
D
0
D
D
2
F
1
3
1
F
F
D
2
1
F
0
4
A
6
3
0
D
E
D
E
E
0
E
1
D
B
F
B
5
2
E
F
0
F
E
E
6
F
7
1
D
2
1
2
1
E
D
0
0
3
0
0
1
0
1
1
D
E
E
3
D
1
E
1
D
D
D
0
E
2
0
E
0
F
1
2
3
E
3
3
0
F
1
F
3
0
0
D
1
2
F
1
3
3
D
F
E
1
0
D
F
E
1
1
E
F
D
E
3
E
2
0
0
1
3
2
2
F
2
3
2
2
0
2
E
2
0
4
F
D
E
0
2
D
F
0
2
2
1
F
F
2
1
E
2
D
1
1
1
0
3
E
2
1
4
F
3
4
0
3
3
E
D
D
E
D
3
E
D
1
1
2
2
F
0
3
F
2
2
3
1
F
1
0
E
2
E
0
0
E
3
3
3
3
D
3
F
D
0
0
2
3
0
F
D
1
0
0
0
1
D
2
D
F
1
D
1
0
E
2
D
F
F
F
2
0
D
F
F
3
F
D
1
0
E
F
1
D
F
E
1
2
2
3
2
3
E
1
F
E
0
E
2
2
D
F
E
2
D
E
0
2
E
2
2
D
F
1
1
E
1
3
1
E
2
0
E
2
F
D
0
E
5
1
2
F
2
2
D
1
2
2
2
1
F
2
F
F
2
F
1
0
E
F
E
E
D
1
D
2
1
1
F
2
1
0
2
2
F
0
0
1
2
3
F
2
1
D
1
2
D
F
1
2
2
2
1
3
1
E
F
E
D
1
2
F
2
2
E
E
3
2
E
3
0
F
F
3
D
F
D
E
1
2
0
2
0
1
C
E
0
D
1
0
E
0
D
C
1
1
4
5
2
2
E
F
3
F
2
D
5
0
1
D
1
0
0
F
2
0
3
E
1
1
1
D
2
0
F
2
E
D
F
3
F
2
D
2
E
E
E
F
0
F
0
2
F
F
E
F
E
E
F
2
F
0
2
F
F
3
0
E
0
D
E
F
F
D
4
1
E
0
2
E
1
1
1
1
F
C
1
1
F
3
2
2
1
D
3
1
E
C
F
2
F
1
1
F
2
1
1
1
2
E
D
3
D
2
F
E
F
1
F
F
0
F
1
0
F
0
3
D
2
E
1
E
1
2
C
F
F
0
E
1
1
E
F
1
E
0
0
0
E
E
0
3
E
D
1
E
F
0
1
F
F
1
3
2
F
F
F
E
E
0
E
2
F
D
1
2
2
0
0
0
0
0
0
3
3
D
0
3
1
1
2
1
1
D
F
0
0
1
E
2
1
3
1
D
0
1
4
F
1
3
F
E
D

