2E
01
F1
2F
F2
E1
01
F1
1F
13
1F
1E
FD
01
F1
01
2F
EF
22
0F
13
E1
00
0E
EF
1E
FE
E2
21
12
F0
02
F2
11
F2
1F
20
E2
F2
32
F0
10
10
0F
1E
F1
E1
F1
32
13
0F
23
F0
F2
F3
21
DF
FE
23
31
10
0F
EE
2E
01
E1
10
0F
2E
F2
FE
2E
E2
10
F2
01
FD
1E
FF
EF
12
02
13
E2
00
00
2F
FF
E2
00
0E
ED
1F
F2
02
1F
1E
D1
20
E0
D2
FF
1C
FE
0F
30
F0
D1
22
F0
00
0F
01
0F
02
E1
FE
10
00
21
F2
EF
FE
20
01
01
F1
1E
2F
2E
F2
E2
2F
E2
21
1E
E0
22
E1
01
0F
1E
FE
0F
E0
1F
10
10
2F
2F
11
0F
EE
00
EF
00
21
2E
00
1E
20
FF
20
20
E0
0E
FF
2F
11
10
E0
2E
FE
01
22
10
FD
00
11
FE
10
0E
F0
1F
1E
01
0F
FF
0F
2E
F1
EE
12
E0
1F
00
2E
2E
21
EF
0F
F0
00
1F
E0
0F
FF
1E
E2
01
20
0F
0E
FE
FF
F2
FE
F2
01
20
0E
00
11
E2
E1
E0
FE
1E
1F
EF
2E
3E
F0
E1
20
D0
00
E2
02
FF
F1
03
00
3E
02
FF
32
31
00
AF
11
3F
21
21
13
2E
E1
F1
0E
02
22
10
2E
20
F2
02
2F
0F
2E
1E
FE
1F
10
3F
0F
11
02
F3
F4
32
21
0F
31
41
11
EE
F3
3E
44
14
1F
44
01
F2
E6
44
0F
3F
41
41
D0
EF
F5
6E
10
2F
21
EE
F0
21
0F
E1
02
F0
E1
EF
F0
E0
11
FE
02
23
0F
22
1F
00
12
31
F0
90
32
10
E2
FF
F3
F0
E1
0E
FF
12
EE
21
F0
F1
03
20
1F
00
F0
02
20
2E
02
FF
0E
0E
F0
00
02
EE
FE
F0
12
0F
F0
10
21
F1
0F
1F
F1
1E
EF
E1
E1
20
F0
1E
0F
22
21
1E
F1
F0
22
22
1F
E1
20
22
EE
E1
FE
10
EE
2F
E1
F0
1F
E0
10
22
21
F3
D2
02
01
E1
0E
22
2F
11
21
11
F3
11
D1
E0
FF
2F
E2
EE
0E
E0
20
FF
2C
0F
00
01
11
DF
14
41
40
14
30
14
D6
35
EF
2E
40
60
2F
01
05
1F
E1
3F
1F
02
E1
E0
1E
20
11
02
00
0E
F1
10
00
FE
22
22
11
2E
FE
FF
1E
2F
EF
F2
E0
20
EE
E2
FF
E1
20
EF
11
01
0F
1E
12
20
1F
2E
EF
1E
F2
0E
EF
F0
10
FE
E1
FF
FE
FE
2E
1F
1E
EE
0F
01
22
2F
EF
E1
