30
C3
A2
9C
DC
DF
FC
1E
1D
15
2B
01
EE
04
B2
EE
EB
43
6F
4F
1C
EF
7C
B4
B1
1D
62
5B
5A
1E
24
BE
3F
EB
C2
5F
1D
11
0D
FB
1A
FB
C1
DC
DD
20
2F
B4
20
DD
0B
B0
11
1B
50
0C
01
0C
4D
E2
E2
CF
11
1A
60
00
C0
E4
63
A0
A0
60
5C
70
A0
13
06
00
9A
F1
20
0E
31
11
1E
03
2E
E1
2F
2F
0F
EE
F1
E3
ED
D2
F0
2E
FD
DE
01
D1
D0
0E
DE
DF
F0
1F
1F
33
2F
E1
22
E0
02
EE
D1
3D
FE
3E
D3
E1
ED
F1
12
E3
11
33
D0
F2
31
2F
DE
11
30
DE
3F
31
01
03
FF
00
F3
E2
01
E1
0D
10
F2
12
E2
23
2E
EE
21
21
00
20
CD
DF
F0
F1
2D
12
03
1D
20
30
F1
C1
2D
2F
00
F1
3D
13
1F
FE
13
2D
1E
01
21
E2
F0
F2
04
0D
EE
E1
00
D1
33
F1
10
1C
E1
F2
0D
3E
03
10
F2
D0
3F
21
E3
DE
00
20
E0
0F
D1
0D
01
FD
01
F0
EE
1E
DF
13
02
DF
22
03
DF
0E
1D
11
FE
1F
12
1F
0F
FF
33
1E
F0
DD
2F
3F
2F
FC
20
EF
E0
31
00
F0
0D
FD
0E
2E
D0
1F
21
E3
02
ED
3E
0F
2F
F0
1D
D2
ED
1E
2F
0E
01
EE
F2
0E
E1
20
F3
FE
DD
3D
DE
E1
D1
FE
E0
1E
3F
2D
2F
00
FE
0F
E0
E2
20
E0
D0
DD
2F
13
1F
FD
21
F0
4A
63
0D
ED
EE
0E
1D
BF
B5
2E
F0
FE
E6
F7
1D
21
21
ED
00
30
01
01
1D
EE
3D
1E
1D
DD
0E
20
E0
F1
23
E3
30
F1
F3
00
D1
2F
13
3D
FE
10
DF
E1
1E
FD
E3
E2
00
13
22
F2
32
20
2E
20
4F
DE
02
DF
02
21
FF
21
E2
D1
11
03
E2
14
F3
40
33
ED
DE
D3
ED
11
22
F0
3F
22
31
F1
0E
2E
00
E3
33
3D
3F
D0
02
30
FD
10
00
1D
2D
F1
D1
0E
2D
FF
F2
0D
FF
3F
D1
0E
F1
DF
E1
22
32
3E
1F
E0
E2
2D
FE
2D
E0
2E
22
DF
11
E1
31
E2
0E
2F
D0
E5
12
F2
2D
12
22
1F
2F
F2
F1
0E
FE
ED
1D
21
1F
21
02
2F
00
12
3F
21
D1
2D
F1
22
21
31
EF
ED
12
F2
2E
E3
2E
30
FF
3D
FD
E1
20
20
1C
E0
D1
0E
0D
C1
14
52
2E
F3
F2
D5
01
D1
00
F2
03
E1
11
D2
0F
2E
DF
3F
2D
2E
EE
F0
F0
2F
FE
FE
EF
2F
02
FF
30
E0
DE
FF
D4
1E
02
E1
11
1F
C1
1F
32
21
D3
1E
CF
2F
11
F2
11
12
ED
3D
2F
EF
1F
F0
F1
0F
03
D2
E1
E1
2C
FF
0E
11
EF
1E
00
0E
E0
3E
D1
EF
01
FF
13
2F
FF
EE
0E
2F
D1
22
00
00
00
33
D0
31
12
11
DF
00
1E
21
31
D0
14
F1
3F
ED
5A
62
E1
A1
ED
30
00
A1
C5
60
02
00
06
A7
0B
00
2E
01
F1
2F
F2
E1
01
F1
1F
13
1F
1E
FD
01
F1
01
2F
EF
22
0F
13
E1
00
0E
EF
1E
FE
E2
21
12
F0
02
F2
11
F2
1F
20
E2
F2
32
F0
10
10
0F
1E
F1
E1
F1
32
13
0F
23
F0
F2
F3
21
DF
FE
23
31
10
0F
EE
2E
01
E1
10
0F
2E
F2
FE
2E
E2
10
F2
01
FD
1E
FF
EF
12
02
13
E2
00
00
2F
FF
E2
00
0E
ED
1F
F2
02
1F
1E
D1
20
E0
D2
FF
1C
FE
0F
30
F0
D1
22
F0
00
0F
01
0F
02
E1
FE
10
00
21
F2
EF
FE
20
01
01
F1
1E
2F
2E
F2
E2
2F
E2
21
1E
E0
22
E1
01
0F
1E
FE
0F
E0
1F
10
10
2F
2F
11
0F
EE
00
EF
00
21
2E
00
1E
20
FF
20
20
E0
0E
FF
2F
11
10
E0
2E
FE
01
22
10
FD
00
11
FE
10
0E
F0
1F
1E
01
0F
FF
0F
2E
F1
EE
12
E0
1F
00
2E
2E
21
EF
0F
F0
00
1F
E0
0F
FF
1E
E2
01
20
0F
0E
FE
FF
F2
FE
F2
01
20
0E
00
11
E2
E1
E0
FE
1E
1F
EF
2E
3E
F0
E1
20
D0
00
E2
02
FF
F1
03
00
3E
02
FF
32
31
00
AF
11
3F
21
21
13
2E
E1
F1
0E
02
22
10
2E
20
F2
02
2F
0F
2E
1E
FE
1F
10
3F
0F
11
02
F3
F4
32
21
0F
31
41
11
EE
F3
3E
44
14
1F
44
01
F2
E6
44
0F
3F
41
41
D0
EF
F5
6E
10
2F
21
EE
F0
21
0F
E1
02
F0
E1
EF
F0
E0
11
FE
02
23
0F
22
1F
00
12
31
F0
90
32
10
E2
FF
F3
F0
E1
0E
FF
12
EE
21
F0
F1
03
20
1F
00
F0
02
20
2E
02
FF
0E
0E
F0
00
02
EE
FE
F0
12
0F
F0
10
21
F1
0F
1F
F1
1E
EF
E1
E1
20
F0
1E
0F
22
21
1E
F1
F0
22
22
1F
E1
20
22
EE
E1
FE
10
EE
2F
E1
F0
1F
E0
10
22
21
F3
D2
02
01
E1
0E
22
2F
11
21
11
F3
11
D1
E0
FF
2F
E2
EE
0E
E0
20
FF
2C
0F
00
01
11
DF
14
41
40
14
30
14
D6
35
EF
2E
40
60
2F
01
05
1F
E1
3F
1F
02
E1
E0
1E
20
11
02
00
0E
F1
10
00
FE
22
22
11
2E
FE
FF
1E
2F
EF
F2
E0
20
EE
E2
FF
E1
20
EF
11
01
0F
1E
12
20
1F
2E
EF
1E
F2
0E
EF
F0
10
FE
E1
FF
FE
FE
2E
1F
1E
EE
0F
01
22
2F
EF
E1
56
76
6B
67
66
06
B6
66
0C
2B
60
60
B0
0A
06
60
42
42
1E
33
13
F5
E7
26
DD
3F
4F
7F
DE
0F
E4
5D
70
